80
7F
FF
00
AB
AB
8A
64
13
32
8A
75
51
BB
AB
AB
C8
04
F2
C8
22
AB
C8
E3
F2
40
BB
04
13
8A
22
AB
8A
75
75
51
C8
9A
32
F2
9A
04
8A
64
C8
22
D6
04
13
AB
75
40
75
64
13
64
9A
AB
8A
D6
E3
C8
51
D6
C8
04
AB
51
9A
75
40
BB
8A
51
32
40
40
9A
D6
9A
64
22
D6
8A
D6
D6
40
22
64
F2
9A
32
40
13
40
04
04
F2
8A
9A
8A
22
D6
04
64
BB
E3
40
BB
9A
C8
AB
75
51
22
64
51
AB
64
04
51
64
D6
9A
BB
F2
51
64
8A
04
F2
BB
9A
D6
75
D6
04
32
E3
75
75
BB
04
C8
C8
8A
22
04
8A
C8
64
BB
AB
04
75
BB
32
40
BB
40
E3
22
22
04
9A
51
D6
AB
8A
13
32
8A
04
BB
22
AB
32
E3
75
AB
D6
9A
64
64
C8
22
51
13
04
BB
9A
64
64
22
D6
D6
40
64
64
40
22
9A
AB
64
22
8A
9A
22
8A
AB
13
32
22
BB
32
BB
D6
40
22
51
22
13
9A
E3
C8
BB
75
E3
64
22
51
04
13
04
AB
32
C8
8A
22
AB
75
75
64
E3
8A
75
F2
75
75
51
C8
E3
51
D6
AB
13
75
32
13
9A
22
75
AB
04
64
40
32
32
D6
C8
51
51
64
64
04
04
51
22
32
51
64
D6
E3
9A
13
8A
F2
04
C8
13
8A
8A
51
D6
9A
04
40
BB
22
9A
8A
04
04
22
40
75
04
D6
51
C8
F2
9A
8A
75
51
32
E3
AB
AB
BB
13
32
22
C8
75
40
13
22
F2
BB
D6
40
8A
9A
8A
8A
64
32
F2
9A
04
F2
AB
F2
E3
22
22
8A
E3
22
04
64
22
AB
9A
22
8A
13
75
13
E3
22
F2
13
75
E3
75
64
AB
9A
9A
8A
9A
32
9A
D6
51
8A
51
C8
9A
32
22
64
40
51
C8
AB
40
51
75
E3
E3
40
D6
75
64
F2
40
40
9A
64
04
51
D6
64
E3
8A
64
9A
D6
75
75
13
22
F2
C8
D6
32
40
51
51
9A
04
8A
13
F2
64
D6
9A
AB
40
22
9A
9A
32
9A
51
32
9A
9A
75
E3
E3
51
75
75
40
E3
9A
40
13
F2
64
9A
04
8A
F2
8A
9A
9A
22
40
13
75
E3
C8
64
BB
75
8A
75
8A
64
04
75
9A
13
75
04
22
32
F2
22
13
64
8A
C8
75
64
F2
22
C8
AB
F2
D6
13
9A
75
75
32
04
D6
51
32
AB
64
51
75
32
22
F2
75
64
8A
8A
E3
51
75
AB
13
E3
75
51
51
F2
E3
C8
8A
64
51
75
75
13
40
75
51
BB
F2
9A
75
22
BB
32
22
D6
9A
32
04
40
04
51
13
13
64
E3
AB
8A
40
22
32
BB
AB
8A
D6
13
E3
F2
64
D6
04
40
E3
22
64
75
AB
75
04
C8
F2
75
04
D6
22
BB
9A
9A
9A
AB
AB
22
AB
D6
64
F2
32
AB
AB
8A
AB
C8
AB
9A
9A
F2
BB
E3
04
32
8A
51
22
9A
64
64
8A
C8
51
40
AB
BB
E3
04
22
E3
F2
40
8A
BB
32
64
04
04
9A
F2
04
BB
C8
E3
8A
D6
BB
D6
9A
64
13
32
51
04
9A
04
13
40
F2
9A
C8
E3
22
13
D6
75
22
BB
9A
AB
BB
AB
AB
C8
AB
64
9A
04
E3
75
9A
E3
75
64
51
C8
AB
32
75
13
13
C8
40
AB
D6
F2
04
BB
9A
22
C8
13
AB
04
04
8A
D6
AB
8A
75
D6
51
BB
32
40
13
F2
E3
D6
75
51
75
9A
40
75
AB
8A
40
13
51
AB
51
BB
AB
AB
51
22
04
D6
64
E3
51
F2
E3
F2
C8
40
04
BB
64
E3
04
64
22
9A
75
22
D6
AB
51
22
04
64
51
AB
D6
BB
40
8A
13
40
64
D6
51
9A
51
9A
E3
51
AB
BB
32
32
22
32
04
BB
D6
AB
64
13
E3
F2
75
AB
13
04
22
8A
64
75
13
32
64
32
AB
13
22
F2
40
75
64
F2
9A
75
51
9A
64
64
04
13
E3
8A
D6
51
8A
D6
E3
04
64
D6
D6
40
F2
BB
F2
AB
AB
04
F2
64
E3
13
22
8A
22
AB
75
AB
E3
9A
75
04
13
9A
40
BB
64
BB
AB
8A
F2
13
8A
40
F2
04
F2
E3
13
AB
AB
64
75
E3
C8
22
E3
8A
AB
32
22
8A
BB
BB
32
8A
9A
51
AB
22
BB
9A
BB
32
64
51
E3
32
BB
C8
64
8A
9A
BB
8A
AB
13
F2
64
51
D6
C8
E3
13
C8
22
E3
13
F2
C8
75
40
AB
64
04
64
51
F2
8A
C8
04
22
C8
AB
51
75
04
AB
C8
8A
64
9A
13
C8
13
22
51
BB
8A
AB
64
64
13
13
22
AB
64
F2
E3
04
8A
AB
40
9A
13
BB
E3
C8
D6
32
C8
13
F2
22
75
40
BB
8A
C8
13
8A
04
13
D6
40
9A
9A
40
04
32
F2
BB
51
51
32
C8
13
D6
9A
64
AB
75
F2
AB
04
64
40
51
22
32
51
BB
04
BB
75
75
8A
32
64
AB
13
64
8A
32
C8
64
75
